// Auto-generated header file for TFLite model
const unsigned char unified_crop_model[] = {
  0x1c, 0x00, 0x00, 0x00, 0x54, 0x46, 0x4c, 0x33, 0x14, 0x00, 0x20, 0x00, 
  0x1c, 0x00, 0x18, 0x00, 0x14, 0x00, 0x10, 0x00, 0x0c, 0x00, 0x00, 0x00, 
  0x08, 0x00, 0x04, 0x00, 0x14, 0x00, 0x00, 0x00, 0x1c, 0x00, 0x00, 0x00, 
  0x98, 0x00, 0x00, 0x00, 0xf0, 0x00, 0x00, 0x00, 0x14, 0x0d, 0x00, 0x00, 
  0x24, 0x0d, 0x00, 0x00, 0x0c, 0x12, 0x00, 0x00, 0x03, 0x00, 0x00, 0x00, 
  0x01, 0x00, 0x00, 0x00, 0x10, 0x00, 0x00, 0x00, 0x00, 0x00, 0x0a, 0x00, 
  0x10, 0x00, 0x0c, 0x00, 0x08, 0x00, 0x04, 0x00, 0x0a, 0x00, 0x00, 0x00, 
  0x0c, 0x00, 0x00, 0x00, 0x1c, 0x00, 0x00, 0x00, 0x3c, 0x00, 0x00, 0x00, 
  0x0f, 0x00, 0x00, 0x00, 0x73, 0x65, 0x72, 0x76, 0x69, 0x6e, 0x67, 0x5f, 
  0x64, 0x65, 0x66, 0x61, 0x75, 0x6c, 0x74, 0x00, 0x01, 0x00, 0x00, 0x00, 
  0x04, 0x00, 0x00, 0x00, 0x90, 0xff, 0xff, 0xff, 0x09, 0x00, 0x00, 0x00, 
  0x04, 0x00, 0x00, 0x00, 0x08, 0x00, 0x00, 0x00, 0x6f, 0x75, 0x74, 0x70, 
  0x75, 0x74, 0x5f, 0x30, 0x00, 0x00, 0x00, 0x00, 0x01, 0x00, 0x00, 0x00, 
  0x04, 0x00, 0x00, 0x00, 0xba, 0xf3, 0xff, 0xff, 0x04, 0x00, 0x00, 0x00, 
  0x0c, 0x00, 0x00, 0x00, 0x6b, 0x65, 0x72, 0x61, 0x73, 0x5f, 0x74, 0x65, 
  0x6e, 0x73, 0x6f, 0x72, 0x00, 0x00, 0x00, 0x00, 0x02, 0x00, 0x00, 0x00, 
  0x34, 0x00, 0x00, 0x00, 0x04, 0x00, 0x00, 0x00, 0xdc, 0xff, 0xff, 0xff, 
  0x0c, 0x00, 0x00, 0x00, 0x04, 0x00, 0x00, 0x00, 0x13, 0x00, 0x00, 0x00, 
  0x43, 0x4f, 0x4e, 0x56, 0x45, 0x52, 0x53, 0x49, 0x4f, 0x4e, 0x5f, 0x4d, 
  0x45, 0x54, 0x41, 0x44, 0x41, 0x54, 0x41, 0x00, 0x08, 0x00, 0x0c, 0x00, 
  0x08, 0x00, 0x04, 0x00, 0x08, 0x00, 0x00, 0x00, 0x0b, 0x00, 0x00, 0x00, 
  0x04, 0x00, 0x00, 0x00, 0x13, 0x00, 0x00, 0x00, 0x6d, 0x69, 0x6e, 0x5f, 
  0x72, 0x75, 0x6e, 0x74, 0x69, 0x6d, 0x65, 0x5f, 0x76, 0x65, 0x72, 0x73, 
  0x69, 0x6f, 0x6e, 0x00, 0x0d, 0x00, 0x00, 0x00, 0x20, 0x0c, 0x00, 0x00, 
  0x18, 0x0c, 0x00, 0x00, 0xc8, 0x0b, 0x00, 0x00, 0xb0, 0x03, 0x00, 0x00, 
  0x9c, 0x03, 0x00, 0x00, 0x4c, 0x03, 0x00, 0x00, 0xbc, 0x02, 0x00, 0x00, 
  0xac, 0x00, 0x00, 0x00, 0xa4, 0x00, 0x00, 0x00, 0x9c, 0x00, 0x00, 0x00, 
  0x94, 0x00, 0x00, 0x00, 0x74, 0x00, 0x00, 0x00, 0x04, 0x00, 0x00, 0x00, 
  0x6a, 0xf4, 0xff, 0xff, 0x04, 0x00, 0x00, 0x00, 0x60, 0x00, 0x00, 0x00, 
  0x10, 0x00, 0x00, 0x00, 0x00, 0x00, 0x00, 0x00, 0x08, 0x00, 0x0e, 0x00, 
  0x08, 0x00, 0x04, 0x00, 0x08, 0x00, 0x00, 0x00, 0x10, 0x00, 0x00, 0x00, 
  0x24, 0x00, 0x00, 0x00, 0x00, 0x00, 0x06, 0x00, 0x08, 0x00, 0x04, 0x00, 
  0x06, 0x00, 0x00, 0x00, 0x04, 0x00, 0x00, 0x00, 0x00, 0x00, 0x00, 0x00, 
  0x0c, 0x00, 0x18, 0x00, 0x14, 0x00, 0x10, 0x00, 0x0c, 0x00, 0x04, 0x00, 
  0x0c, 0x00, 0x00, 0x00, 0x65, 0x3f, 0xab, 0x41, 0x40, 0x37, 0x46, 0x4a, 
  0x02, 0x00, 0x00, 0x00, 0x02, 0x00, 0x00, 0x00, 0x04, 0x00, 0x00, 0x00, 
  0x06, 0x00, 0x00, 0x00, 0x32, 0x2e, 0x31, 0x39, 0x2e, 0x30, 0x00, 0x00, 
  0xd6, 0xf4, 0xff, 0xff, 0x04, 0x00, 0x00, 0x00, 0x10, 0x00, 0x00, 0x00, 
  0x31, 0x2e, 0x35, 0x2e, 0x30, 0x00, 0x00, 0x00, 0x00, 0x00, 0x00, 0x00, 
  0x00, 0x00, 0x00, 0x00, 0xd0, 0xef, 0xff, 0xff, 0xd4, 0xef, 0xff, 0xff, 
  0xd8, 0xef, 0xff, 0xff, 0xfe, 0xf4, 0xff, 0xff, 0x04, 0x00, 0x00, 0x00, 
  0x00, 0x02, 0x00, 0x00, 0xec, 0xd7, 0x3d, 0x3f, 0xb7, 0xf0, 0x04, 0x3d, 
  0xfd, 0xbe, 0xa5, 0x3e, 0x58, 0xe4, 0xfb, 0x3e, 0xf9, 0xae, 0x01, 0x3e, 
  0x51, 0xec, 0x83, 0xbf, 0x43, 0xb0, 0x0c, 0x3e, 0x12, 0x94, 0x4b, 0xbf, 
  0xd8, 0x2b, 0xbb, 0xbe, 0xdf, 0xe4, 0x6c, 0xbe, 0xdc, 0xf7, 0x7a, 0xbf, 
  0xc0, 0x7d, 0x8d, 0x3e, 0x68, 0x4d, 0xac, 0xbf, 0x89, 0xea, 0x81, 0xbf, 
  0x18, 0x0e, 0x8a, 0x3d, 0x61, 0x1e, 0x28, 0xbd, 0x4d, 0x4d, 0x1d, 0xbf, 
  0x18, 0xf1, 0x57, 0xbe, 0x75, 0x63, 0x3d, 0x3f, 0xe7, 0x04, 0x77, 0x3f, 
  0xf0, 0xcd, 0xbd, 0xbe, 0xe5, 0x5c, 0xf6, 0xbe, 0xd2, 0xb6, 0x85, 0xbf, 
  0xaf, 0x33, 0x15, 0x3e, 0x00, 0x2c, 0x5c, 0xbd, 0x52, 0x43, 0x91, 0xbf, 
  0x14, 0x10, 0x1b, 0xbf, 0xc7, 0xce, 0x85, 0x3e, 0x11, 0x1b, 0x59, 0x3f, 
  0x3a, 0x41, 0xe2, 0xbd, 0x04, 0x51, 0xed, 0x3e, 0x1c, 0x66, 0x41, 0xbf, 
  0x34, 0x21, 0x4f, 0xbf, 0x92, 0x0c, 0x3d, 0xbf, 0xb2, 0x98, 0x4a, 0x3f, 
  0x2a, 0x24, 0x0c, 0x3c, 0xe8, 0xf9, 0xb8, 0xbf, 0xc3, 0xd9, 0xa9, 0x3d, 
  0x05, 0xac, 0xe6, 0x3e, 0x04, 0xe8, 0xac, 0xbe, 0xbb, 0x6a, 0x8c, 0xbf, 
  0x4d, 0x56, 0xed, 0x3d, 0xfc, 0x81, 0x39, 0x3f, 0xfb, 0x0a, 0xb1, 0xbe, 
  0x89, 0x03, 0xd0, 0x3e, 0x88, 0x04, 0x9d, 0xbf, 0xed, 0xc5, 0x8e, 0xbe, 
  0x14, 0xfa, 0xda, 0xbe, 0xa5, 0xf8, 0x27, 0x3f, 0x06, 0x10, 0x13, 0xbf, 
  0xbb, 0x79, 0x2d, 0x3e, 0x6e, 0x26, 0x42, 0xbf, 0x43, 0xe9, 0xbd, 0x3e, 
  0x1d, 0xe3, 0x19, 0x3f, 0x89, 0x64, 0x13, 0x3f, 0x28, 0x8a, 0x5a, 0xbd, 
  0xe0, 0x01, 0xd2, 0x3e, 0x7d, 0xcd, 0x95, 0x3e, 0x50, 0xa0, 0x01, 0x3e, 
  0xde, 0x63, 0xe2, 0xbf, 0xdc, 0x0d, 0x99, 0xbe, 0xa4, 0xde, 0xed, 0xbe, 
  0xa3, 0x33, 0xdb, 0x3e, 0xe0, 0x4b, 0xa5, 0xbf, 0x1d, 0x21, 0x57, 0xbf, 
  0xac, 0x7a, 0xcc, 0x3f, 0xba, 0x07, 0x94, 0xbe, 0x22, 0x3a, 0x09, 0x3e, 
  0x3c, 0x90, 0x8d, 0xbf, 0x7c, 0x34, 0x89, 0x3e, 0xaf, 0x25, 0x2b, 0xbf, 
  0x27, 0x44, 0xeb, 0x3e, 0x80, 0x3c, 0xc6, 0xbe, 0x43, 0xa4, 0x40, 0xbd, 
  0x98, 0xa9, 0x74, 0xbf, 0xf9, 0xa2, 0xcb, 0x3e, 0xb3, 0x66, 0x7c, 0x3e, 
  0x0f, 0x16, 0x0a, 0xbf, 0x05, 0x27, 0x17, 0x3f, 0xc0, 0xdf, 0x8f, 0x3d, 
  0xe1, 0xb1, 0xc0, 0xbd, 0x23, 0x64, 0x08, 0xc0, 0x16, 0xc0, 0xca, 0xbd, 
  0xcf, 0x03, 0x3a, 0x3e, 0x97, 0x1a, 0xda, 0xbe, 0xd4, 0x80, 0x89, 0xbd, 
  0x8b, 0x48, 0x88, 0xbf, 0x4d, 0xfe, 0x7d, 0x3e, 0xa9, 0x28, 0x83, 0x3e, 
  0x7b, 0xef, 0x05, 0x3f, 0x94, 0x94, 0x25, 0xbc, 0xd0, 0xc2, 0x85, 0x3e, 
  0xb5, 0x0b, 0x37, 0x3d, 0x04, 0xf9, 0xe2, 0x3f, 0x03, 0xbb, 0x71, 0xbe, 
  0xbd, 0xa6, 0xe1, 0x3e, 0x4f, 0x35, 0x4d, 0x3e, 0xb8, 0xc7, 0xb0, 0xbf, 
  0xed, 0x4c, 0x73, 0xbf, 0xd7, 0x4d, 0x9b, 0x3e, 0x8f, 0xce, 0x80, 0x3f, 
  0xd7, 0x5a, 0x2e, 0x3d, 0x83, 0xf4, 0x59, 0x3c, 0xb4, 0x0f, 0x74, 0xbe, 
  0x0e, 0x2c, 0x81, 0x3e, 0x87, 0x7a, 0xa1, 0x3f, 0xbe, 0x74, 0xa2, 0xbe, 
  0x49, 0xbb, 0xfc, 0xbe, 0x3f, 0x52, 0x40, 0xbf, 0x37, 0x5b, 0x97, 0xbe, 
  0x6a, 0x72, 0xce, 0x3e, 0x97, 0xc8, 0xa8, 0xbe, 0xa0, 0xd3, 0xab, 0xbd, 
  0x26, 0x10, 0xf8, 0x3e, 0xa9, 0xe0, 0x4f, 0x3f, 0x11, 0x63, 0x52, 0x3e, 
  0x90, 0xc8, 0xeb, 0x3e, 0x19, 0x71, 0xf2, 0x3e, 0xd6, 0xcf, 0x4e, 0xbd, 
  0xc2, 0x60, 0x36, 0xbf, 0x3d, 0x8f, 0x0d, 0x3f, 0x3b, 0x1b, 0xa4, 0xbe, 
  0xc7, 0xc6, 0x03, 0x3e, 0x80, 0x2e, 0x5c, 0xbe, 0x89, 0x92, 0x55, 0xbf, 
  0xdf, 0xb9, 0xaf, 0x3c, 0x04, 0x74, 0x9c, 0xbf, 0x92, 0xc1, 0xc6, 0x3c, 
  0x0a, 0xf7, 0xff, 0xff, 0x04, 0x00, 0x00, 0x00, 0x80, 0x00, 0x00, 0x00, 
  0xf1, 0x85, 0xd6, 0x3e, 0x68, 0xf0, 0x3d, 0x3f, 0x34, 0x08, 0xae, 0x3e, 
  0xd7, 0xcc, 0x2e, 0x3f, 0x84, 0x2f, 0x02, 0x3f, 0x3e, 0x9e, 0x19, 0x3d, 
  0xd0, 0x19, 0x10, 0x3f, 0xa6, 0x74, 0x16, 0xbe, 0x5e, 0xf3, 0xfa, 0x3e, 
  0x52, 0xf5, 0x67, 0x3e, 0x2a, 0x38, 0x7e, 0xbc, 0x83, 0x34, 0x6e, 0x3d, 
  0xaa, 0xea, 0x31, 0xbe, 0x74, 0xd6, 0x61, 0x3e, 0x86, 0x67, 0xc6, 0x3e, 
  0x35, 0x4a, 0x6e, 0x3f, 0x27, 0x5e, 0x13, 0x3f, 0x2e, 0x0a, 0xd5, 0x3e, 
  0x1e, 0x40, 0xc9, 0x3e, 0xaa, 0xe6, 0x19, 0x3f, 0x1b, 0x50, 0xc0, 0x3e, 
  0x85, 0x0b, 0xcd, 0x3e, 0x69, 0xa3, 0xbc, 0x3e, 0x91, 0x94, 0x7a, 0x3e, 
  0xd9, 0xd9, 0x87, 0x3e, 0x50, 0x14, 0x3a, 0x3f, 0x80, 0x0c, 0xb1, 0x3d, 
  0xcb, 0xec, 0x06, 0x3f, 0x97, 0xdc, 0xb7, 0xbd, 0xc6, 0x47, 0xd0, 0x3e, 
  0xf4, 0xa4, 0x11, 0x3f, 0x38, 0x9c, 0x11, 0x3d, 0x96, 0xf7, 0xff, 0xff, 
  0x04, 0x00, 0x00, 0x00, 0x40, 0x00, 0x00, 0x00, 0x83, 0x2a, 0x05, 0xbd, 
  0x6b, 0x15, 0x60, 0x3e, 0xbe, 0x2b, 0x43, 0xbe, 0x0a, 0x72, 0x03, 0x3e, 
  0x23, 0xc0, 0x4a, 0xbe, 0x4c, 0xaf, 0xe0, 0x3b, 0x30, 0x7d, 0x4e, 0xbe, 
  0xe9, 0x9b, 0x97, 0xbd, 0xb4, 0x22, 0x8d, 0x3e, 0xf2, 0xdc, 0xd0, 0x3d, 
  0x67, 0xe4, 0x6f, 0xbe, 0xd6, 0xf0, 0x06, 0x3f, 0x1d, 0xae, 0x42, 0xbe, 
  0x7e, 0xf5, 0x12, 0x3e, 0xfc, 0xc3, 0x1e, 0xbd, 0xd5, 0x6b, 0xf3, 0x3e, 
  0xe2, 0xf7, 0xff, 0xff, 0x04, 0x00, 0x00, 0x00, 0x04, 0x00, 0x00, 0x00, 
  0xfd, 0x16, 0x81, 0xbe, 0xf2, 0xf7, 0xff, 0xff, 0x04, 0x00, 0x00, 0x00, 
  0x00, 0x08, 0x00, 0x00, 0xa0, 0xd6, 0x5a, 0x3c, 0x1b, 0xdc, 0x3a, 0xbe, 
  0x6d, 0x9e, 0xa1, 0x3d, 0x16, 0x5d, 0x85, 0x3c, 0xd7, 0xe9, 0x01, 0xbe, 
  0xfe, 0x7c, 0x39, 0xbe, 0x25, 0x33, 0x9c, 0xbe, 0x36, 0x70, 0x84, 0xbe, 
  0x9d, 0x58, 0x90, 0xbe, 0x37, 0xec, 0xc1, 0x3d, 0x0c, 0x9c, 0x05, 0xbc, 
  0x99, 0x33, 0xea, 0xbb, 0x0b, 0x99, 0x90, 0xbe, 0x8c, 0x87, 0x73, 0x3e, 
  0x71, 0xc3, 0x99, 0xbd, 0xed, 0x9f, 0xdd, 0xbd, 0x7f, 0x2a, 0xdf, 0xbd, 
  0x85, 0x1c, 0x20, 0x3e, 0xa8, 0xcf, 0x87, 0xbe, 0x70, 0xe1, 0xc1, 0xbe, 
  0xe7, 0xaf, 0x87, 0xbe, 0x0f, 0xe9, 0x84, 0x3d, 0xdd, 0xb2, 0xb7, 0xbe, 
  0xbe, 0x2f, 0x5b, 0xbe, 0x5e, 0xc0, 0x63, 0x3b, 0xe6, 0x10, 0x89, 0x3e, 
  0xd5, 0x4c, 0x9b, 0xbd, 0x1d, 0xaa, 0x09, 0xbd, 0xaf, 0x02, 0x2c, 0x3d, 
  0x8a, 0x3a, 0x50, 0xbd, 0x46, 0xb3, 0x93, 0xbe, 0xc5, 0xd4, 0x59, 0x3d, 
  0x0a, 0x40, 0x43, 0x3f, 0xc2, 0xb9, 0x99, 0x3e, 0x74, 0xf1, 0x27, 0x3f, 
  0x18, 0x33, 0x7d, 0x3f, 0x8b, 0xcd, 0x12, 0x3f, 0x09, 0xaa, 0x35, 0xbf, 
  0x0d, 0x2d, 0xca, 0x3e, 0x39, 0x44, 0xe0, 0x3d, 0xea, 0x7f, 0xa3, 0xbc, 
  0xc8, 0x96, 0xb9, 0x3b, 0xce, 0x80, 0x98, 0xbf, 0xb9, 0xe2, 0xaa, 0x3e, 
  0x3c, 0x95, 0xfd, 0x3e, 0xce, 0x08, 0x68, 0x3e, 0x9c, 0xf3, 0xcf, 0xbf, 
  0x4c, 0x21, 0x97, 0xbf, 0xa6, 0xbd, 0x23, 0x3f, 0x0b, 0x9b, 0x2f, 0x3f, 
  0x3f, 0x93, 0xf2, 0x3e, 0x15, 0x91, 0x9b, 0x3d, 0xf8, 0xea, 0x05, 0xc0, 
  0x41, 0x36, 0x56, 0x3f, 0xad, 0x90, 0x82, 0x3e, 0x76, 0x1e, 0x2f, 0xc0, 
  0xbe, 0x14, 0x09, 0x3f, 0xfa, 0xe7, 0x00, 0x3f, 0xd7, 0x05, 0x27, 0x3f, 
  0xb9, 0x6d, 0x94, 0xbe, 0xbe, 0x84, 0xa8, 0xbd, 0x1d, 0x16, 0xef, 0x3e, 
  0xa5, 0xdf, 0x27, 0x3f, 0xae, 0x73, 0x95, 0xbf, 0xc5, 0x43, 0x40, 0x3f, 
  0x3a, 0x55, 0x32, 0x3f, 0x38, 0x76, 0x9a, 0x3e, 0x44, 0x2d, 0x27, 0x3f, 
  0x37, 0x6a, 0xcb, 0x3e, 0x80, 0x0c, 0x3b, 0xbf, 0x8f, 0x83, 0x83, 0x3f, 
  0x98, 0x32, 0x64, 0x3f, 0xb7, 0xe2, 0x00, 0xbf, 0xc6, 0x6f, 0xfe, 0x3c, 
  0x0b, 0xc8, 0x66, 0xbf, 0x3a, 0x1b, 0x1b, 0x3f, 0x4d, 0x82, 0x4b, 0x3f, 
  0xb3, 0xea, 0xb3, 0x3e, 0xea, 0x93, 0xd2, 0xbe, 0xa6, 0x43, 0x22, 0xbf, 
  0x3d, 0xb4, 0x54, 0x3f, 0x42, 0x8c, 0xfa, 0x3e, 0xcd, 0x62, 0xf9, 0x3e, 
  0xd2, 0x3e, 0xe8, 0x3e, 0x55, 0xe8, 0x90, 0xbf, 0x8d, 0x35, 0xbe, 0x3e, 
  0x8c, 0x42, 0xae, 0x3d, 0x40, 0x89, 0x9c, 0xbf, 0x9c, 0xa9, 0x3c, 0x3f, 
  0x98, 0x09, 0xf1, 0x3d, 0xce, 0x08, 0x82, 0x3e, 0xb2, 0x33, 0x3a, 0xbf, 
  0x00, 0x82, 0x81, 0xba, 0x91, 0x81, 0x5f, 0x3f, 0xec, 0xc0, 0x9c, 0x3c, 
  0xed, 0xc9, 0x04, 0xbf, 0x62, 0xec, 0x9b, 0x3e, 0xa5, 0xa3, 0x4d, 0x3f, 
  0x4f, 0xdc, 0x03, 0x3f, 0x68, 0x0a, 0xea, 0x3e, 0x93, 0xac, 0x87, 0x3e, 
  0xe7, 0xa3, 0xd5, 0xbf, 0x45, 0x03, 0x91, 0x3e, 0x1d, 0x02, 0x75, 0x3f, 
  0x15, 0x2f, 0x93, 0xbf, 0x29, 0xa8, 0x7a, 0x3d, 0xf0, 0x45, 0xff, 0xbf, 
  0xe1, 0x3f, 0x94, 0x3f, 0x8d, 0x59, 0xbe, 0x3f, 0x23, 0x1a, 0x32, 0x3e, 
  0xdf, 0x35, 0x0d, 0xc0, 0x18, 0x19, 0x9a, 0xbf, 0xbc, 0x1f, 0xac, 0x3f, 
  0x0c, 0xea, 0xcb, 0x3f, 0x56, 0xdd, 0x38, 0xbd, 0x25, 0x7b, 0xcf, 0x3e, 
  0xb6, 0xe2, 0x53, 0xc0, 0xf9, 0x28, 0x23, 0x3f, 0x3a, 0x74, 0x33, 0xbd, 
  0x46, 0x06, 0x41, 0xc0, 0x65, 0x5d, 0x31, 0x3f, 0xf7, 0x58, 0x79, 0x3e, 
  0xf8, 0xf8, 0xa9, 0x3e, 0x71, 0x6f, 0x7c, 0xbd, 0x4d, 0xaa, 0x36, 0x3f, 
  0x3d, 0xcf, 0x18, 0x3f, 0x41, 0x7c, 0x01, 0x3f, 0xf0, 0x06, 0xf5, 0xbf, 
  0xaf, 0xd6, 0x01, 0x3f, 0xb6, 0x1e, 0x15, 0x3f, 0x87, 0x69, 0xc0, 0x3e, 
  0x12, 0x92, 0x8b, 0x3f, 0x7e, 0x69, 0xb5, 0x3e, 0x46, 0x8d, 0xc0, 0xbe, 
  0x73, 0x5f, 0x5c, 0x3f, 0x9c, 0xb4, 0x24, 0x3f, 0x26, 0x83, 0xcb, 0x3e, 
  0x9d, 0xf6, 0x59, 0x3f, 0xdb, 0x4a, 0x3b, 0xbe, 0x37, 0x17, 0x60, 0x3f, 
  0x73, 0x49, 0x92, 0x3f, 0xf0, 0xb3, 0xb2, 0xbc, 0x73, 0xf5, 0x01, 0xbf, 
  0xfc, 0x78, 0xdf, 0xbd, 0x80, 0x9c, 0x70, 0x3f, 0x54, 0xdc, 0x0a, 0x3f, 
  0x11, 0x5d, 0x09, 0x3f, 0xa4, 0xb7, 0xdc, 0xbd, 0x44, 0x9a, 0x96, 0xbf, 
  0x41, 0x86, 0x0e, 0x3e, 0x96, 0xdb, 0xaf, 0x3e, 0xd1, 0x2d, 0x71, 0xbf, 
  0x0e, 0xeb, 0xff, 0x3e, 0xae, 0x39, 0x1e, 0x3c, 0x45, 0xad, 0x45, 0x3e, 
  0xc0, 0x15, 0x5b, 0xbe, 0xb2, 0x52, 0x06, 0x3f, 0xc0, 0xb4, 0x76, 0x3e, 
  0xfc, 0x40, 0x7f, 0xbd, 0x18, 0xf8, 0x3d, 0xbf, 0x52, 0x15, 0x95, 0x3e, 
  0xa0, 0x69, 0x5e, 0x3f, 0x4c, 0x64, 0xcc, 0x3e, 0x3c, 0x6f, 0x8a, 0x3f, 
  0x08, 0xdf, 0xef, 0x3e, 0x79, 0x27, 0xc2, 0xbf, 0x79, 0xb7, 0xa5, 0x3e, 
  0x21, 0x5b, 0x07, 0x3f, 0x2f, 0x05, 0x23, 0xbe, 0x55, 0xd0, 0x49, 0x3f, 
  0xac, 0x43, 0x41, 0xbf, 0xfd, 0x73, 0x9a, 0x3e, 0x1a, 0x8c, 0x41, 0x3f, 
  0x91, 0xb5, 0x2b, 0x3e, 0x27, 0x7c, 0x63, 0xbf, 0x2b, 0x39, 0xb7, 0xbe, 
  0xa0, 0x57, 0x00, 0x3f, 0x02, 0x50, 0x27, 0x3f, 0x56, 0x9d, 0xf9, 0x3e, 
  0x95, 0x38, 0x1f, 0x3e, 0x12, 0x9c, 0xdc, 0xbf, 0xf6, 0x4e, 0x51, 0x3e, 
  0x09, 0xe6, 0xf4, 0x3e, 0x38, 0xe6, 0xaa, 0xbf, 0x00, 0x24, 0xb5, 0x3d, 
  0xb7, 0xe2, 0x1e, 0x3e, 0xa4, 0xda, 0xcb, 0x3e, 0x7f, 0x67, 0x0e, 0x3d, 
  0xc0, 0xf5, 0xb8, 0x3e, 0x3f, 0xea, 0x16, 0x3f, 0xe2, 0x48, 0x33, 0x3e, 
  0xe6, 0x83, 0xd5, 0xbf, 0x01, 0x5a, 0xca, 0x3d, 0x10, 0x9c, 0x24, 0x3f, 
  0x4e, 0x3a, 0x1a, 0x3f, 0x29, 0x4e, 0x35, 0x3f, 0xc3, 0xda, 0xe7, 0x3e, 
  0x55, 0x04, 0x26, 0xbf, 0x0a, 0x29, 0x00, 0x3f, 0x1d, 0x7a, 0x73, 0x3f, 
  0x1c, 0xfa, 0x34, 0xbe, 0xf1, 0xdf, 0x5d, 0x3f, 0x0b, 0x04, 0xb8, 0x3d, 
  0x22, 0xd5, 0x4b, 0x3f, 0x81, 0x6d, 0x38, 0x3f, 0xb4, 0xdc, 0x8d, 0xbe, 
  0x87, 0x36, 0xfa, 0xbe, 0x5b, 0xd6, 0x14, 0xbe, 0x58, 0xd5, 0x47, 0x3f, 
  0xd1, 0xfe, 0xe2, 0x3e, 0xff, 0xf3, 0x1e, 0x3f, 0x62, 0x4d, 0x09, 0x3f, 
  0xf0, 0xa7, 0xa2, 0xbf, 0xbd, 0x24, 0xe0, 0x3e, 0xac, 0x30, 0x4c, 0xbe, 
  0x2c, 0xf9, 0x47, 0xbf, 0xfa, 0x61, 0x3b, 0x3f, 0x19, 0xa6, 0xfe, 0x3e, 
  0xf1, 0x44, 0xdf, 0x3e, 0xc8, 0xa5, 0xb2, 0xbc, 0x00, 0x31, 0xad, 0x3e, 
  0x70, 0xc7, 0x05, 0x3f, 0xec, 0xba, 0x18, 0xbd, 0xc9, 0x4c, 0xe3, 0xbe, 
  0x82, 0x6f, 0x88, 0x3e, 0x09, 0x97, 0xa3, 0xbe, 0xa6, 0x96, 0xa0, 0xbe, 
  0xa6, 0x82, 0x5d, 0x3e, 0xd2, 0x12, 0x38, 0x3e, 0xc8, 0x6e, 0x8d, 0xbe, 
  0x22, 0x33, 0xc9, 0xbd, 0xbd, 0x2f, 0x86, 0xbe, 0x05, 0x20, 0x79, 0xbd, 
  0x5a, 0x72, 0xd8, 0xbe, 0xee, 0x51, 0x77, 0xbe, 0x2d, 0x67, 0xea, 0xbd, 
  0x8c, 0x32, 0x8b, 0xbe, 0x6c, 0xf1, 0xae, 0xbd, 0xd9, 0x27, 0xbc, 0xbe, 
  0x29, 0x16, 0x25, 0xbe, 0x56, 0x4f, 0x45, 0xbd, 0x9d, 0xf9, 0x5e, 0x3e, 
  0xc9, 0xae, 0x68, 0xbe, 0x39, 0xde, 0x14, 0xbc, 0x10, 0x88, 0x81, 0xbe, 
  0x1e, 0x0e, 0x86, 0x3e, 0x6c, 0x02, 0xef, 0xbc, 0x39, 0xd1, 0x99, 0xbe, 
  0x2e, 0xb6, 0x82, 0xbe, 0x56, 0x2a, 0xcc, 0xbe, 0x5b, 0x5d, 0xf4, 0x3d, 
  0xd6, 0x43, 0x0e, 0x3e, 0x6a, 0x65, 0x35, 0x3e, 0x33, 0xbf, 0x20, 0xbe, 
  0x95, 0x28, 0x20, 0xbe, 0x75, 0xc0, 0x6b, 0x3e, 0xcb, 0x62, 0x6b, 0x3d, 
  0xe5, 0xb7, 0xf0, 0x3e, 0x37, 0xfb, 0xe7, 0x3e, 0x47, 0x07, 0xa3, 0xbf, 
  0x6e, 0x9a, 0xd6, 0xbf, 0x03, 0x14, 0x0c, 0x3f, 0x5e, 0xf7, 0x26, 0x3f, 
  0x39, 0xe0, 0x3d, 0xbf, 0x8d, 0x0f, 0x20, 0xbf, 0x54, 0x0b, 0x59, 0x3e, 
  0xa9, 0xb2, 0xb4, 0x3e, 0xbd, 0x7f, 0x2c, 0x3f, 0x63, 0x9f, 0x24, 0x3e, 
  0xce, 0xfd, 0x8b, 0xbf, 0x48, 0xe7, 0x4f, 0x3f, 0xb2, 0x29, 0x69, 0x3e, 
  0xfe, 0x1d, 0x64, 0xba, 0xf6, 0x89, 0x83, 0xbe, 0x14, 0x15, 0x30, 0x3f, 
  0x79, 0xbe, 0x89, 0xbd, 0x5e, 0xf7, 0xc8, 0x3f, 0xfc, 0x06, 0xb9, 0x3e, 
  0x00, 0x57, 0x49, 0xbf, 0x0c, 0x5d, 0xcd, 0xbd, 0x79, 0xbe, 0x85, 0x3f, 
  0xaf, 0x29, 0x4b, 0xbd, 0x12, 0xbf, 0x54, 0xbe, 0x4a, 0x29, 0x1a, 0x3f, 
  0xa8, 0x14, 0x86, 0xbe, 0x07, 0x70, 0x25, 0xbf, 0xdb, 0x9c, 0xa4, 0x3e, 
  0x31, 0x51, 0xbe, 0x3e, 0x1a, 0x77, 0x4a, 0x3f, 0x50, 0x84, 0xe7, 0xbe, 
  0x83, 0x5a, 0x5b, 0x3e, 0xcf, 0xad, 0x28, 0xbd, 0xbb, 0x22, 0xf2, 0x3d, 
  0xfa, 0x7b, 0x08, 0x3f, 0x03, 0xa1, 0x3f, 0xbe, 0xce, 0x4f, 0x05, 0xbf, 
  0xd6, 0x61, 0xf2, 0x3c, 0x38, 0xc0, 0x86, 0x3e, 0x5a, 0x4e, 0x07, 0xbd, 
  0xe5, 0x0a, 0x6f, 0xbf, 0x44, 0x4c, 0x73, 0xbf, 0x6a, 0x78, 0x01, 0xbe, 
  0x6c, 0xb4, 0x14, 0x3f, 0x2c, 0x3b, 0x2c, 0x3f, 0x74, 0xf5, 0xc0, 0x3d, 
  0xb9, 0xb2, 0xb1, 0xbe, 0x8c, 0xd1, 0x82, 0xbe, 0x35, 0xf9, 0xe6, 0xbd, 
  0xce, 0x60, 0x02, 0xc0, 0x76, 0xf0, 0x02, 0xbd, 0x4b, 0x52, 0xad, 0xbe, 
  0x7f, 0x1b, 0xcc, 0xbe, 0xf1, 0xb8, 0x80, 0xbe, 0xe1, 0x67, 0x1c, 0xbf, 
  0xd2, 0x70, 0xd8, 0xbb, 0x18, 0x7b, 0xab, 0x3d, 0x45, 0x3c, 0xe1, 0x3e, 
  0xba, 0xe0, 0x29, 0xbc, 0x80, 0x47, 0x97, 0xbf, 0xab, 0x4a, 0x06, 0xbf, 
  0xea, 0x34, 0x98, 0x3e, 0xe6, 0x7a, 0x16, 0x3f, 0xbd, 0x51, 0x23, 0x3f, 
  0x50, 0xff, 0x84, 0x3f, 0xbe, 0x3a, 0xbd, 0x3e, 0x75, 0xf4, 0xf7, 0xbe, 
  0x49, 0x3d, 0x4f, 0x3f, 0xcc, 0x9e, 0x43, 0x3f, 0xfe, 0x52, 0x2e, 0xbe, 
  0x4c, 0x88, 0x41, 0x3f, 0x24, 0xaa, 0x92, 0xbe, 0x4d, 0x5a, 0x53, 0x3f, 
  0x49, 0x0c, 0x21, 0x3f, 0xca, 0xad, 0xf3, 0xbd, 0x70, 0x23, 0x69, 0xbe, 
  0xb5, 0x2c, 0x57, 0xbe, 0x83, 0x96, 0x5b, 0x3f, 0x78, 0xc0, 0x25, 0x3f, 
  0x3a, 0x05, 0x0b, 0x3f, 0x6c, 0x37, 0x55, 0x3e, 0x74, 0xa4, 0x94, 0xbf, 
  0x6e, 0x73, 0xef, 0x3e, 0x3c, 0x7d, 0x35, 0x3e, 0x2f, 0x9a, 0x98, 0xbf, 
  0xf7, 0x01, 0x3c, 0x3f, 0x09, 0x53, 0xd6, 0x3e, 0x2c, 0x89, 0x27, 0x3f, 
  0x40, 0xdf, 0xc2, 0xbe, 0x97, 0x28, 0xf3, 0x3e, 0x69, 0xb4, 0x90, 0x3e, 
  0xe6, 0xe3, 0xc4, 0x3e, 0x32, 0xd3, 0x17, 0xbf, 0x26, 0x75, 0x05, 0x3d, 
  0xbe, 0x63, 0xc9, 0xbd, 0xa0, 0x46, 0x42, 0xbf, 0x16, 0x8b, 0xc0, 0xbf, 
  0x93, 0x7a, 0x24, 0x3f, 0xf7, 0x48, 0x33, 0x3f, 0x86, 0x36, 0x24, 0x3e, 
  0x23, 0x34, 0x29, 0x3d, 0xb6, 0xcf, 0x03, 0x3f, 0x35, 0x15, 0x3d, 0xbf, 
  0x00, 0xee, 0x73, 0xbe, 0xc4, 0x7a, 0xc1, 0xbe, 0x6b, 0xf1, 0xdc, 0xbd, 
  0x9a, 0x50, 0x0b, 0x3f, 0x1e, 0x72, 0x2c, 0x3f, 0xd0, 0x53, 0xe9, 0x3e, 
  0xfc, 0xbc, 0x15, 0xc0, 0xfb, 0x6c, 0xe3, 0xbc, 0x54, 0x31, 0xb5, 0xbf, 
  0x61, 0x3e, 0x32, 0x3f, 0x87, 0x35, 0xef, 0x3f, 0x1d, 0xc7, 0xc0, 0xbf, 
  0x5c, 0xc8, 0xc7, 0x3e, 0xe1, 0x99, 0x98, 0x3f, 0x6b, 0x99, 0x12, 0xbf, 
  0x3f, 0xa6, 0x22, 0x3f, 0xe2, 0x07, 0x00, 0xbc, 0xad, 0xbc, 0xd8, 0x3e, 
  0x2e, 0xe9, 0xf4, 0x3e, 0x6d, 0x5e, 0xae, 0xbe, 0xa1, 0xea, 0xbe, 0x3e, 
  0xab, 0xbc, 0x63, 0xbe, 0x0a, 0x0d, 0x8b, 0x3e, 0x08, 0x04, 0x0c, 0x3f, 
  0x9e, 0x8a, 0xc1, 0x3e, 0x8e, 0xa5, 0x77, 0x3f, 0x22, 0x0b, 0x11, 0x3f, 
  0x2c, 0x42, 0x42, 0xbf, 0xb0, 0x80, 0x0c, 0x3f, 0x1a, 0x76, 0xc6, 0x3e, 
  0xa3, 0x9f, 0xa0, 0x3d, 0xc3, 0x6b, 0x54, 0x3f, 0x7f, 0xae, 0x3a, 0xbe, 
  0xf2, 0x27, 0x11, 0x3f, 0x4c, 0x05, 0x92, 0x3f, 0xcd, 0xc2, 0x85, 0xbe, 
  0x1d, 0x11, 0x6b, 0xbe, 0xa7, 0xff, 0x24, 0xbf, 0x4f, 0xf2, 0x88, 0x3f, 
  0x74, 0x59, 0x87, 0x3e, 0x1a, 0xe5, 0x2d, 0x3f, 0x3e, 0xa9, 0x95, 0x3e, 
  0x4a, 0x0e, 0x7c, 0xbf, 0xe1, 0x6d, 0x33, 0x3f, 0x7d, 0x0c, 0xc0, 0x3e, 
  0xb2, 0xa8, 0xa6, 0xbf, 0xc1, 0xdc, 0x9c, 0x3e, 0x5b, 0xca, 0x59, 0x3e, 
  0xc4, 0xc5, 0x1c, 0x3f, 0x75, 0xcf, 0x80, 0xbe, 0x19, 0x1d, 0x03, 0x3f, 
  0x9e, 0x4b, 0xfa, 0x3e, 0x96, 0x7f, 0x7d, 0x3e, 0x7f, 0x53, 0xf1, 0xbe, 
  0x2c, 0xc2, 0xd2, 0x3e, 0x92, 0xb0, 0x0d, 0x3f, 0x9a, 0x67, 0x17, 0x3f, 
  0x06, 0x86, 0xbc, 0x3f, 0x9f, 0x80, 0xd4, 0x3e, 0xc0, 0x63, 0x9b, 0xbf, 
  0x40, 0x18, 0x2d, 0x3e, 0x50, 0xf9, 0x97, 0x3e, 0xdf, 0x5a, 0x92, 0x3e, 
  0xe2, 0xc5, 0x04, 0x3f, 0x03, 0x04, 0x43, 0xbf, 0x32, 0x0e, 0x27, 0x3f, 
  0x0a, 0x8a, 0x83, 0x3f, 0x8b, 0x38, 0xa9, 0x3e, 0xdb, 0x2f, 0xf3, 0xbe, 
  0x4d, 0xbc, 0x18, 0xbe, 0x09, 0x01, 0xed, 0x3e, 0x12, 0x28, 0x8c, 0x3e, 
  0xd6, 0xed, 0xea, 0x3e, 0xf9, 0xdc, 0x02, 0x3f, 0xfc, 0x79, 0xd3, 0xbf, 
  0xc3, 0xb3, 0x80, 0xbd, 0xa0, 0x5e, 0xd6, 0x3e, 0x6c, 0x59, 0xe1, 0xbf, 
  0xd6, 0x69, 0x21, 0x3e, 0xd0, 0xff, 0x23, 0x3f, 0xdf, 0xfd, 0x25, 0x3f, 
  0x0d, 0xbc, 0xda, 0x3b, 0x58, 0x64, 0x90, 0xbe, 0x79, 0x5f, 0xbb, 0x3e, 
  0xcf, 0x59, 0x62, 0x3d, 0x2a, 0x8c, 0xcf, 0xbf, 0x4a, 0x1e, 0x27, 0xc0, 
  0x6d, 0x3d, 0xa0, 0xbf, 0x87, 0xfa, 0x4b, 0xbe, 0x6b, 0xbb, 0x85, 0x3f, 
  0x4b, 0x26, 0xab, 0x3e, 0xa3, 0x3c, 0x0f, 0xbe, 0xd0, 0x37, 0xbb, 0xbd, 
  0x28, 0xa8, 0xcf, 0x3f, 0xee, 0x24, 0x59, 0x3f, 0xb5, 0x36, 0x6c, 0x3f, 
  0x1a, 0xa8, 0x4e, 0x3f, 0x44, 0x62, 0x69, 0x3e, 0xfb, 0x06, 0x9f, 0x3f, 
  0xea, 0xe4, 0xf3, 0xbd, 0x9e, 0x56, 0xee, 0xbe, 0x77, 0xa4, 0x10, 0xbf, 
  0xcc, 0xfb, 0x51, 0x3f, 0xec, 0xab, 0xb1, 0x3e, 0xec, 0x77, 0x71, 0x3e, 
  0xbc, 0x20, 0x80, 0xbe, 0xb1, 0xd3, 0x27, 0xbe, 0x04, 0x0c, 0x35, 0x3e, 
  0x3d, 0xfe, 0x88, 0xbe, 0xf7, 0x04, 0xda, 0xbe, 0x05, 0x92, 0x9b, 0x3e, 
  0xd8, 0x30, 0xa8, 0xc0, 0xf8, 0xab, 0xbb, 0xbf, 0x0f, 0x74, 0x56, 0x3f, 
  0x8e, 0xc1, 0x0c, 0xbe, 0x92, 0x76, 0xf3, 0xbf, 0xe0, 0x56, 0x11, 0xc0, 
  0x83, 0x0e, 0x2a, 0x3e, 0x36, 0xfe, 0x54, 0xbf, 0x27, 0x33, 0xce, 0xbf, 
  0xd7, 0x91, 0x14, 0x3f, 0xac, 0xdd, 0x74, 0x3e, 0x2e, 0xe5, 0x75, 0xbe, 
  0x55, 0x0e, 0x8c, 0x3e, 0x08, 0x01, 0x77, 0x3e, 0x85, 0xec, 0xc5, 0xbf, 
  0x2a, 0x88, 0xf3, 0xbd, 0xc9, 0x4b, 0x9a, 0xbe, 0xcf, 0xe0, 0x85, 0xbf, 
  0xe2, 0x0e, 0x1e, 0xbd, 0x32, 0x3c, 0x3a, 0xbf, 0x96, 0xfc, 0x73, 0x3e, 
  0xc5, 0x19, 0x08, 0xbf, 0x03, 0x10, 0x01, 0xbf, 0xcb, 0x52, 0xff, 0x3e, 
  0x82, 0x26, 0xf3, 0x3e, 0x98, 0xd0, 0xfc, 0x3d, 0x42, 0x67, 0x99, 0xbf, 
  0xd5, 0x08, 0x40, 0xbf, 0xa6, 0x92, 0x59, 0x3e, 0x3f, 0x95, 0x90, 0x3e, 
  0x49, 0xd7, 0x0c, 0x3f, 0xdb, 0x32, 0x46, 0xbe, 0x78, 0x7a, 0x71, 0xbe, 
  0x4f, 0xac, 0x96, 0x3e, 0x47, 0xdf, 0xb5, 0xbe, 0xf5, 0x87, 0xa6, 0x3d, 
  0xf3, 0xa5, 0x21, 0xbe, 0x9d, 0x3a, 0x66, 0xbf, 0x67, 0xca, 0xaf, 0xbb, 
  0x00, 0x00, 0x06, 0x00, 0x08, 0x00, 0x04, 0x00, 0x06, 0x00, 0x00, 0x00, 
  0x04, 0x00, 0x00, 0x00, 0x40, 0x00, 0x00, 0x00, 0xfe, 0xcf, 0x2f, 0xbd, 
  0x10, 0x94, 0x42, 0x40, 0x9a, 0x8b, 0xcb, 0x3f, 0x11, 0x56, 0xa1, 0x40, 
  0xe5, 0xb4, 0x94, 0x3f, 0x6c, 0xb5, 0xd6, 0x3f, 0xca, 0x93, 0x85, 0x3f, 
  0x16, 0xac, 0x29, 0xbe, 0x71, 0x86, 0xfe, 0xbf, 0xad, 0x42, 0x20, 0xc0, 
  0xd5, 0xdd, 0xb2, 0x3f, 0x0f, 0x01, 0x10, 0xc0, 0x86, 0x9e, 0xb1, 0x3f, 
  0xe5, 0x0e, 0xf5, 0x3f, 0xfd, 0x0a, 0x47, 0xc0, 0xdd, 0x35, 0xd0, 0xbf, 
  0x30, 0xfb, 0xff, 0xff, 0x34, 0xfb, 0xff, 0xff, 0x0f, 0x00, 0x00, 0x00, 
  0x4d, 0x4c, 0x49, 0x52, 0x20, 0x43, 0x6f, 0x6e, 0x76, 0x65, 0x72, 0x74, 
  0x65, 0x64, 0x2e, 0x00, 0x01, 0x00, 0x00, 0x00, 0x14, 0x00, 0x00, 0x00, 
  0x00, 0x00, 0x0e, 0x00, 0x18, 0x00, 0x14, 0x00, 0x10, 0x00, 0x0c, 0x00, 
  0x08, 0x00, 0x04, 0x00, 0x0e, 0x00, 0x00, 0x00, 0x14, 0x00, 0x00, 0x00, 
  0x1c, 0x00, 0x00, 0x00, 0xd8, 0x00, 0x00, 0x00, 0xdc, 0x00, 0x00, 0x00, 
  0xe0, 0x00, 0x00, 0x00, 0x04, 0x00, 0x00, 0x00, 0x6d, 0x61, 0x69, 0x6e, 
  0x00, 0x00, 0x00, 0x00, 0x03, 0x00, 0x00, 0x00, 0x80, 0x00, 0x00, 0x00, 
  0x38, 0x00, 0x00, 0x00, 0x04, 0x00, 0x00, 0x00, 0x9a, 0xff, 0xff, 0xff, 
  0x10, 0x00, 0x00, 0x00, 0x00, 0x00, 0x00, 0x08, 0x0c, 0x00, 0x00, 0x00, 
  0x10, 0x00, 0x00, 0x00, 0xac, 0xfb, 0xff, 0xff, 0x01, 0x00, 0x00, 0x00, 
  0x09, 0x00, 0x00, 0x00, 0x03, 0x00, 0x00, 0x00, 0x08, 0x00, 0x00, 0x00, 
  0x01, 0x00, 0x00, 0x00, 0x03, 0x00, 0x00, 0x00, 0xca, 0xff, 0xff, 0xff, 
  0x10, 0x00, 0x00, 0x00, 0x00, 0x00, 0x00, 0x08, 0x10, 0x00, 0x00, 0x00, 
  0x14, 0x00, 0x00, 0x00, 0xba, 0xff, 0xff, 0xff, 0x00, 0x00, 0x00, 0x01, 
  0x01, 0x00, 0x00, 0x00, 0x08, 0x00, 0x00, 0x00, 0x03, 0x00, 0x00, 0x00, 
  0x07, 0x00, 0x00, 0x00, 0x02, 0x00, 0x00, 0x00, 0x04, 0x00, 0x00, 0x00, 
  0x00, 0x00, 0x0e, 0x00, 0x16, 0x00, 0x00, 0x00, 0x10, 0x00, 0x0c, 0x00, 
  0x0b, 0x00, 0x04, 0x00, 0x0e, 0x00, 0x00, 0x00, 0x18, 0x00, 0x00, 0x00, 
  0x00, 0x00, 0x00, 0x08, 0x18, 0x00, 0x00, 0x00, 0x1c, 0x00, 0x00, 0x00, 
  0x00, 0x00, 0x06, 0x00, 0x08, 0x00, 0x07, 0x00, 0x06, 0x00, 0x00, 0x00, 
  0x00, 0x00, 0x00, 0x01, 0x01, 0x00, 0x00, 0x00, 0x07, 0x00, 0x00, 0x00, 
  0x03, 0x00, 0x00, 0x00, 0x00, 0x00, 0x00, 0x00, 0x06, 0x00, 0x00, 0x00, 
  0x05, 0x00, 0x00, 0x00, 0x01, 0x00, 0x00, 0x00, 0x09, 0x00, 0x00, 0x00, 
  0x01, 0x00, 0x00, 0x00, 0x00, 0x00, 0x00, 0x00, 0x0a, 0x00, 0x00, 0x00, 
  0x7c, 0x03, 0x00, 0x00, 0x24, 0x03, 0x00, 0x00, 0xcc, 0x02, 0x00, 0x00, 
  0x90, 0x02, 0x00, 0x00, 0x34, 0x02, 0x00, 0x00, 0xdc, 0x01, 0x00, 0x00, 
  0x90, 0x01, 0x00, 0x00, 0xfc, 0x00, 0x00, 0x00, 0x60, 0x00, 0x00, 0x00, 
  0x04, 0x00, 0x00, 0x00, 0xc2, 0xfc, 0xff, 0xff, 0x00, 0x00, 0x00, 0x01, 
  0x14, 0x00, 0x00, 0x00, 0x1c, 0x00, 0x00, 0x00, 0x1c, 0x00, 0x00, 0x00, 
  0x0a, 0x00, 0x00, 0x00, 0x34, 0x00, 0x00, 0x00, 0x02, 0x00, 0x00, 0x00, 
  0xff, 0xff, 0xff, 0xff, 0x01, 0x00, 0x00, 0x00, 0xac, 0xfc, 0xff, 0xff, 
  0x1b, 0x00, 0x00, 0x00, 0x53, 0x74, 0x61, 0x74, 0x65, 0x66, 0x75, 0x6c, 
  0x50, 0x61, 0x72, 0x74, 0x69, 0x74, 0x69, 0x6f, 0x6e, 0x65, 0x64, 0x43, 
  0x61, 0x6c, 0x6c, 0x5f, 0x31, 0x3a, 0x30, 0x00, 0x02, 0x00, 0x00, 0x00, 
  0x01, 0x00, 0x00, 0x00, 0x01, 0x00, 0x00, 0x00, 0x1a, 0xfd, 0xff, 0xff, 
  0x00, 0x00, 0x00, 0x01, 0x14, 0x00, 0x00, 0x00, 0x1c, 0x00, 0x00, 0x00, 
  0x1c, 0x00, 0x00, 0x00, 0x09, 0x00, 0x00, 0x00, 0x74, 0x00, 0x00, 0x00, 
  0x02, 0x00, 0x00, 0x00, 0xff, 0xff, 0xff, 0xff, 0x10, 0x00, 0x00, 0x00, 
  0x04, 0xfd, 0xff, 0xff, 0x58, 0x00, 0x00, 0x00, 0x73, 0x65, 0x71, 0x75, 
  0x65, 0x6e, 0x74, 0x69, 0x61, 0x6c, 0x5f, 0x31, 0x2f, 0x64, 0x65, 0x6e, 
  0x73, 0x65, 0x5f, 0x31, 0x5f, 0x32, 0x2f, 0x4d, 0x61, 0x74, 0x4d, 0x75, 
  0x6c, 0x3b, 0x73, 0x65, 0x71, 0x75, 0x65, 0x6e, 0x74, 0x69, 0x61, 0x6c, 
  0x5f, 0x31, 0x2f, 0x64, 0x65, 0x6e, 0x73, 0x65, 0x5f, 0x31, 0x5f, 0x32, 
  0x2f, 0x52, 0x65, 0x6c, 0x75, 0x3b, 0x73, 0x65, 0x71, 0x75, 0x65, 0x6e, 
  0x74, 0x69, 0x61, 0x6c, 0x5f, 0x31, 0x2f, 0x64, 0x65, 0x6e, 0x73, 0x65, 
  0x5f, 0x31, 0x5f, 0x32, 0x2f, 0x42, 0x69, 0x61, 0x73, 0x41, 0x64, 0x64, 
  0x00, 0x00, 0x00, 0x00, 0x02, 0x00, 0x00, 0x00, 0x01, 0x00, 0x00, 0x00, 
  0x10, 0x00, 0x00, 0x00, 0xb2, 0xfd, 0xff, 0xff, 0x00, 0x00, 0x00, 0x01, 
  0x14, 0x00, 0x00, 0x00, 0x1c, 0x00, 0x00, 0x00, 0x1c, 0x00, 0x00, 0x00, 
  0x08, 0x00, 0x00, 0x00, 0x6c, 0x00, 0x00, 0x00, 0x02, 0x00, 0x00, 0x00, 
  0xff, 0xff, 0xff, 0xff, 0x20, 0x00, 0x00, 0x00, 0x9c, 0xfd, 0xff, 0xff, 
  0x52, 0x00, 0x00, 0x00, 0x73, 0x65, 0x71, 0x75, 0x65, 0x6e, 0x74, 0x69, 
  0x61, 0x6c, 0x5f, 0x31, 0x2f, 0x64, 0x65, 0x6e, 0x73, 0x65, 0x5f, 0x31, 
  0x2f, 0x4d, 0x61, 0x74, 0x4d, 0x75, 0x6c, 0x3b, 0x73, 0x65, 0x71, 0x75, 
  0x65, 0x6e, 0x74, 0x69, 0x61, 0x6c, 0x5f, 0x31, 0x2f, 0x64, 0x65, 0x6e, 
  0x73, 0x65, 0x5f, 0x31, 0x2f, 0x52, 0x65, 0x6c, 0x75, 0x3b, 0x73, 0x65, 
  0x71, 0x75, 0x65, 0x6e, 0x74, 0x69, 0x61, 0x6c, 0x5f, 0x31, 0x2f, 0x64, 
  0x65, 0x6e, 0x73, 0x65, 0x5f, 0x31, 0x2f, 0x42, 0x69, 0x61, 0x73, 0x41, 
  0x64, 0x64, 0x00, 0x00, 0x02, 0x00, 0x00, 0x00, 0x01, 0x00, 0x00, 0x00, 
  0x20, 0x00, 0x00, 0x00, 0x96, 0xfe, 0xff, 0xff, 0x00, 0x00, 0x00, 0x01, 
  0x10, 0x00, 0x00, 0x00, 0x10, 0x00, 0x00, 0x00, 0x07, 0x00, 0x00, 0x00, 
  0x28, 0x00, 0x00, 0x00, 0x1c, 0xfe, 0xff, 0xff, 0x1b, 0x00, 0x00, 0x00, 
  0x73, 0x65, 0x71, 0x75, 0x65, 0x6e, 0x74, 0x69, 0x61, 0x6c, 0x5f, 0x31, 
  0x2f, 0x64, 0x65, 0x6e, 0x73, 0x65, 0x5f, 0x31, 0x2f, 0x4d, 0x61, 0x74, 
  0x4d, 0x75, 0x6c, 0x00, 0x02, 0x00, 0x00, 0x00, 0x20, 0x00, 0x00, 0x00, 
  0x04, 0x00, 0x00, 0x00, 0xde, 0xfe, 0xff, 0xff, 0x00, 0x00, 0x00, 0x01, 
  0x10, 0x00, 0x00, 0x00, 0x10, 0x00, 0x00, 0x00, 0x06, 0x00, 0x00, 0x00, 
  0x38, 0x00, 0x00, 0x00, 0x64, 0xfe, 0xff, 0xff, 0x2b, 0x00, 0x00, 0x00, 
  0x73, 0x65, 0x71, 0x75, 0x65, 0x6e, 0x74, 0x69, 0x61, 0x6c, 0x5f, 0x31, 
  0x2f, 0x64, 0x65, 0x6e, 0x73, 0x65, 0x5f, 0x31, 0x2f, 0x42, 0x69, 0x61, 
  0x73, 0x41, 0x64, 0x64, 0x2f, 0x52, 0x65, 0x61, 0x64, 0x56, 0x61, 0x72, 
  0x69, 0x61, 0x62, 0x6c, 0x65, 0x4f, 0x70, 0x00, 0x01, 0x00, 0x00, 0x00, 
  0x20, 0x00, 0x00, 0x00, 0x32, 0xff, 0xff, 0xff, 0x00, 0x00, 0x00, 0x01, 
  0x10, 0x00, 0x00, 0x00, 0x10, 0x00, 0x00, 0x00, 0x05, 0x00, 0x00, 0x00, 
  0x3c, 0x00, 0x00, 0x00, 0xb8, 0xfe, 0xff, 0xff, 0x2d, 0x00, 0x00, 0x00, 
  0x73, 0x65, 0x71, 0x75, 0x65, 0x6e, 0x74, 0x69, 0x61, 0x6c, 0x5f, 0x31, 
  0x2f, 0x64, 0x65, 0x6e, 0x73, 0x65, 0x5f, 0x31, 0x5f, 0x32, 0x2f, 0x42, 
  0x69, 0x61, 0x73, 0x41, 0x64, 0x64, 0x2f, 0x52, 0x65, 0x61, 0x64, 0x56, 
  0x61, 0x72, 0x69, 0x61, 0x62, 0x6c, 0x65, 0x4f, 0x70, 0x00, 0x00, 0x00, 
  0x01, 0x00, 0x00, 0x00, 0x10, 0x00, 0x00, 0x00, 0x8a, 0xff, 0xff, 0xff, 
  0x00, 0x00, 0x00, 0x01, 0x10, 0x00, 0x00, 0x00, 0x10, 0x00, 0x00, 0x00, 
  0x04, 0x00, 0x00, 0x00, 0x1c, 0x00, 0x00, 0x00, 0x10, 0xff, 0xff, 0xff, 
  0x0f, 0x00, 0x00, 0x00, 0x61, 0x72, 0x69, 0x74, 0x68, 0x2e, 0x63, 0x6f, 
  0x6e, 0x73, 0x74, 0x61, 0x6e, 0x74, 0x32, 0x00, 0x01, 0x00, 0x00, 0x00, 
  0x01, 0x00, 0x00, 0x00, 0xc2, 0xff, 0xff, 0xff, 0x00, 0x00, 0x00, 0x01, 
  0x10, 0x00, 0x00, 0x00, 0x10, 0x00, 0x00, 0x00, 0x03, 0x00, 0x00, 0x00, 
  0x1c, 0x00, 0x00, 0x00, 0x48, 0xff, 0xff, 0xff, 0x0f, 0x00, 0x00, 0x00, 
  0x61, 0x72, 0x69, 0x74, 0x68, 0x2e, 0x63, 0x6f, 0x6e, 0x73, 0x74, 0x61, 
  0x6e, 0x74, 0x31, 0x00, 0x02, 0x00, 0x00, 0x00, 0x10, 0x00, 0x00, 0x00, 
  0x20, 0x00, 0x00, 0x00, 0x00, 0x00, 0x16, 0x00, 0x18, 0x00, 0x14, 0x00, 
  0x00, 0x00, 0x10, 0x00, 0x0c, 0x00, 0x08, 0x00, 0x00, 0x00, 0x00, 0x00, 
  0x00, 0x00, 0x07, 0x00, 0x16, 0x00, 0x00, 0x00, 0x00, 0x00, 0x00, 0x01, 
  0x10, 0x00, 0x00, 0x00, 0x10, 0x00, 0x00, 0x00, 0x02, 0x00, 0x00, 0x00, 
  0x1c, 0x00, 0x00, 0x00, 0x9c, 0xff, 0xff, 0xff, 0x0e, 0x00, 0x00, 0x00, 
  0x61, 0x72, 0x69, 0x74, 0x68, 0x2e, 0x63, 0x6f, 0x6e, 0x73, 0x74, 0x61, 
  0x6e, 0x74, 0x00, 0x00, 0x02, 0x00, 0x00, 0x00, 0x01, 0x00, 0x00, 0x00, 
  0x10, 0x00, 0x00, 0x00, 0x00, 0x00, 0x16, 0x00, 0x1c, 0x00, 0x18, 0x00, 
  0x00, 0x00, 0x14, 0x00, 0x10, 0x00, 0x0c, 0x00, 0x00, 0x00, 0x00, 0x00, 
  0x08, 0x00, 0x07, 0x00, 0x16, 0x00, 0x00, 0x00, 0x00, 0x00, 0x00, 0x01, 
  0x14, 0x00, 0x00, 0x00, 0x20, 0x00, 0x00, 0x00, 0x20, 0x00, 0x00, 0x00, 
  0x01, 0x00, 0x00, 0x00, 0x3c, 0x00, 0x00, 0x00, 0x02, 0x00, 0x00, 0x00, 
  0xff, 0xff, 0xff, 0xff, 0x04, 0x00, 0x00, 0x00, 0x04, 0x00, 0x04, 0x00, 
  0x04, 0x00, 0x00, 0x00, 0x1e, 0x00, 0x00, 0x00, 0x73, 0x65, 0x72, 0x76, 
  0x69, 0x6e, 0x67, 0x5f, 0x64, 0x65, 0x66, 0x61, 0x75, 0x6c, 0x74, 0x5f, 
  0x6b, 0x65, 0x72, 0x61, 0x73, 0x5f, 0x74, 0x65, 0x6e, 0x73, 0x6f, 0x72, 
  0x3a, 0x30, 0x00, 0x00, 0x02, 0x00, 0x00, 0x00, 0x01, 0x00, 0x00, 0x00, 
  0x04, 0x00, 0x00, 0x00, 0x01, 0x00, 0x00, 0x00, 0x10, 0x00, 0x00, 0x00, 
  0x0c, 0x00, 0x0c, 0x00, 0x0b, 0x00, 0x00, 0x00, 0x00, 0x00, 0x04, 0x00, 
  0x0c, 0x00, 0x00, 0x00, 0x09, 0x00, 0x00, 0x00, 0x00, 0x00, 0x00, 0x09, 

};
const unsigned int unified_crop_model_len = 4704;
// End of model
